{
  "version": "1.0",
  "truncation": null,
  "padding": null,
  "added_tokens": [
    {
      "id": 0,
      "special": true,
      "content": "[PAD]",
      "single_word": false,
      "lstrip": false,
      "rstrip": false,
      "normalized": false
    },
    {
      "id": 100,
      "special": true,
      "content": "[UNK]",
      "single_word": false,
      "lstrip": false,
      "rstrip": false,
      "normalized": false
    },
    {
      "id": 101,
      "special": true,
      "content": "[CLS]",
      "single_word": false,
      "lstrip": false,
      "rstrip": false,
      "normalized": false
    },
    {
      "id": 102,
      "special": true,
      "content": "[SEP]",
      "single_word": false,
      "lstrip": false,
      "rstrip": false,
      "normalized": false
    },
    {
      "id": 103,
      "special": true,
      "content": "[MASK]",
      "single_word": false,
      "lstrip": false,
      "rstrip": false,
      "normalized": false
    }
  ],
  "normalizer": {
    "type": "BertNormalizer",
    "clean_text": true,
    "handle_chinese_chars": true,
    "strip_accents": null,
    "lowercase": true
  },
  "pre_tokenizer": {
    "type": "BertPreTokenizer"
  },
  "post_processor": {
    "type": "TemplateProcessing",
    "single": [
      {
        "SpecialToken": {
          "id": "[CLS]",
          "type_id": 0
        }
      },
      {
        "Sequence": {
          "id": "A",
          "type_id": 0
        }
      },
      {
        "SpecialToken": {
          "id": "[SEP]",
          "type_id": 0
        }
      }
    ],
    "pair": [
      {
        "SpecialToken": {
          "id": "[CLS]",
          "type_id": 0
        }
      },
      {
        "Sequence": {
          "id": "A",
          "type_id": 0
        }
      },
      {
        "SpecialToken": {
          "id": "[SEP]",
          "type_id": 0
        }
      },
      {
        "Sequence": {
          "id": "B",
          "type_id": 1
        }
      },
      {
        "SpecialToken": {
          "id": "[SEP]",
          "type_id": 1
        }
      }
    ],
    "special_tokens": {
      "[CLS]": {
        "id": "[CLS]",
        "ids": [
          101
        ],
        "tokens": [
          "[CLS]"
        ]
      },
      "[SEP]": {
        "id": "[SEP]",
        "ids": [
          102
        ],
        "tokens": [
          "[SEP]"
        ]
      }
    }
  },
  "decoder": {
    "type": "WordPiece",
    "prefix": "##",
    "cleanup": true
  },
  "model": {
    "unk_token": "[UNK]",
    "continuing_subword_prefix": "##",
    "max_input_chars_per_word": 100,
    "vocab": {
      "[PAD]": 0,
      "[UNK]": 100,
      "[CLS]": 101,
      "[SEP]": 102,
      "[MASK]": 103,
      "hold": 1,
      "upgrades": 2,
      "##des": 3,
      "##ge": 4,
      "implementations": 5,
      "captured": 6,
      "understanding": 7,
      "trains": 8,
      "incident": 9,
      "selecting": 10,
      "tests": 11,
      "purchase": 12,
      "focusing": 13,
      "dock": 14,
      "operating": 15,
      "updated": 16,
      "free": 17,
      "department": 18,
      "writes": 19,
      "##key": 20,
      "where": 21,
      "constraints": 22,
      "instructions": 23,
      "pull": 24,
      "appealing": 25,
      "##tative": 26,
      "logic": 27,
      "##ship": 28,
      "build": 29,
      "engaging": 30,
      "supply": 31,
      "confidential": 32,
      "preparations": 33,
      "details": 34,
      "indicators": 35,
      "resource": 36,
      "productivity": 37,
      "##minating": 38,
      "application": 39,
      "solid": 40,
      "offering": 41,
      "layout": 42,
      "communicating": 43,
      "imp": 44,
      "machine": 45,
      "head": 46,
      "by": 47,
      "sustainability": 48,
      "companies": 49,
      "notes": 50,
      "it": 51,
      "seeking": 52,
      "six": 53,
      "interactive": 54,
      "##writing": 55,
      "maintenance": 56,
      "workshop": 57,
      "spend": 58,
      "extracts": 59,
      "decisions": 60,
      "container": 61,
      "reports": 62,
      "develops": 63,
      "associate": 64,
      "specialty": 65,
      "edge": 66,
      "-": 67,
      "cost": 68,
      "crucial": 69,
      "interacting": 70,
      "##cycle": 71,
      "legacy": 72,
      "uber": 73,
      "players": 74,
      "your": 75,
      "supplier": 76,
      "budget": 77,
      "##jar": 78,
      "campaign": 79,
      "deeper": 80,
      "challenging": 81,
      "##flow": 82,
      "engage": 83,
      "physical": 84,
      "areas": 85,
      "##ana": 86,
      "entered": 87,
      "satisfaction": 88,
      "do": 89,
      "preparation": 90,
      "agents": 91,
      "identify": 92,
      "##era": 93,
      "effectively": 94,
      "p": 95,
      "earning": 96,
      "independent": 97,
      "nur": 98,
      "ranges": 99,
      "timeline": 104,
      "##load": 105,
      "##iste": 106,
      "mac": 107,
      "entry": 108,
      "negative": 109,
      "through": 110,
      "reported": 111,
      "##ua": 112,
      "##an": 113,
      "handling": 114,
      "setup": 115,
      "theoretical": 116,
      "providers": 117,
      "coordinates": 118,
      "##uring": 119,
      "##hell": 120,
      "130": 121,
      "accept": 122,
      "requirement": 123,
      "server": 124,
      "well": 125,
      "manages": 126,
      "screen": 127,
      "##ening": 128,
      "personal": 129,
      "upper": 130,
      "##net": 131,
      "optimal": 132,
      "leadership": 133,
      "safely": 134,
      "##a": 135,
      "own": 136,
      "salary": 137,
      "project": 138,
      "apex": 139,
      "apps": 140,
      "sql": 141,
      "initiative": 142,
      "conferences": 143,
      "while": 144,
      "clarify": 145,
      "deciding": 146,
      "##gno": 147,
      "stripe": 148,
      "track": 149,
      "update": 150,
      "##ming": 151,
      "you": 152,
      "meaningful": 153,
      "lia": 154,
      "creates": 155,
      "implementing": 156,
      "needs": 157,
      "##fu": 158,
      "source": 159,
      "exploration": 160,
      "query": 161,
      "communications": 162,
      "healthcare": 163,
      "##ium": 164,
      "relies": 165,
      "share": 166,
      "continuous": 167,
      "##ologies": 168,
      "##ots": 169,
      "chef": 170,
      "complete": 171,
      "processing": 172,
      "g": 173,
      "##uit": 174,
      "responsibility": 175,
      "bidding": 176,
      "extraction": 177,
      "align": 178,
      "plants": 179,
      "coordination": 180,
      "traveling": 181,
      "self": 182,
      "inspecting": 183,
      "but": 184,
      "migrating": 185,
      "border": 186,
      "responses": 187,
      "advantage": 188,
      "maximize": 189,
      "relationships": 190,
      "ss": 191,
      "k": 192,
      "##base": 193,
      "claims": 194,
      "/": 195,
      "methodology": 196,
      "fault": 197,
      "##bia": 198,
      "se": 199,
      "networking": 200,
      "tolerant": 201,
      "handle": 202,
      "achieved": 203,
      "executing": 204,
      "facilitates": 205,
      "strictly": 206,
      "##ers": 207,
      "##g": 208,
      "degree": 209,
      "dynamics": 210,
      "staying": 211,
      "40": 212,
      "depending": 213,
      "grasp": 214,
      "efforts": 215,
      "anthropology": 216,
      "##ect": 217,
      "meet": 218,
      "events": 219,
      "gained": 220,
      "network": 221,
      "##vision": 222,
      "##words": 223,
      "cutting": 224,
      "profile": 225,
      "just": 226,
      "ist": 227,
      "firms": 228,
      "##per": 229,
      "##uc": 230,
      "placing": 231,
      "difficulty": 232,
      "reduce": 233,
      "mer": 234,
      "sublime": 235,
      "their": 236,
      "classic": 237,
      "##oc": 238,
      "stock": 239,
      "look": 240,
      "performs": 241,
      "segments": 242,
      "bing": 243,
      "display": 244,
      "develop": 245,
      "##iner": 246,
      "##ap": 247,
      "encounters": 248,
      "intelligence": 249,
      "buffer": 250,
      "features": 251,
      "et": 252,
      "grocery": 253,
      "for": 254,
      "mid": 255,
      "a": 256,
      "sc": 257,
      "statistical": 258,
      "times": 259,
      "completion": 260,
      "inspector": 261,
      "multiple": 262,
      "remote": 263,
      "professional": 264,
      "dart": 265,
      "travel": 266,
      "any": 267,
      "##in": 268,
      "mathematical": 269,
      "specializing": 270,
      "ml": 271,
      "raw": 272,
      "possibly": 273,
      "ci": 274,
      "practices": 275,
      "terms": 276,
      "continuously": 277,
      "smartphone": 278,
      "advanced": 279,
      "validation": 280,
      "finance": 281,
      "embraced": 282,
      "85": 283,
      "##ma": 284,
      "step": 285,
      "##ber": 286,
      "##nction": 287,
      "assistance": 288,
      "##ging": 289,
      "er": 290,
      "terra": 291,
      "significant": 292,
      "##encies": 293,
      "premise": 294,
      "promptly": 295,
      "##i": 296,
      "mock": 297,
      "##gs": 298,
      "pursuing": 299,
      "profit": 300,
      "customer": 301,
      "from": 302,
      "identifies": 303,
      "flow": 304,
      "especially": 305,
      "##iq": 306,
      "face": 307,
      "chains": 308,
      "boards": 309,
      "flights": 310,
      "trends": 311,
      "report": 312,
      "specific": 313,
      "##mon": 314,
      "puppet": 315,
      "foundations": 316,
      "obtaining": 317,
      "posts": 318,
      "hearings": 319,
      "##loe": 320,
      "deliveries": 321,
      "practice": 322,
      "##fl": 323,
      "frog": 324,
      "types": 325,
      "ra": 326,
      "via": 327,
      "filing": 328,
      "##rod": 329,
      "possible": 330,
      "assess": 331,
      "gaming": 332,
      "further": 333,
      "skills": 334,
      "solving": 335,
      "bids": 336,
      "pm": 337,
      "average": 338,
      "profitable": 339,
      "volumes": 340,
      "about": 341,
      "external": 342,
      "computational": 343,
      "affecting": 344,
      "actions": 345,
      "incomplete": 346,
      "making": 347,
      "graf": 348,
      "advancement": 349,
      "targets": 350,
      "##cko": 351,
      "noisy": 352,
      "architect": 353,
      "donations": 354,
      "negotiate": 355,
      "malls": 356,
      "migration": 357,
      "conversion": 358,
      "##bilities": 359,
      "complicated": 360,
      "ensuring": 361,
      "##db": 362,
      "gym": 363,
      "ensures": 364,
      "extended": 365,
      "graphics": 366,
      "patterns": 367,
      "difficult": 368,
      "eventually": 369,
      "advances": 370,
      "xml": 371,
      "there": 372,
      "floor": 373,
      "administrative": 374,
      "locations": 375,
      "valued": 376,
      "board": 377,
      "peak": 378,
      "overs": 379,
      "shifting": 380,
      "determine": 381,
      "shortages": 382,
      "creativity": 383,
      "contract": 384,
      "journalism": 385,
      "solution": 386,
      "discretion": 387,
      "expansion": 388,
      "presentations": 389,
      "large": 390,
      "periods": 391,
      "tracks": 392,
      "keep": 393,
      "model": 394,
      "reducing": 395,
      "lead": 396,
      "equipment": 397,
      "deals": 398,
      "supervising": 399,
      "gap": 400,
      "increasingly": 401,
      "cycle": 402,
      "investigate": 403,
      "without": 404,
      "important": 405,
      "java": 406,
      "##mate": 407,
      "grow": 408,
      "management": 409,
      "match": 410,
      "best": 411,
      "low": 412,
      "sending": 413,
      "stake": 414,
      "fairness": 415,
      "may": 416,
      "employed": 417,
      "boot": 418,
      "per": 419,
      "voice": 420,
      "compliance": 421,
      "restore": 422,
      "popular": 423,
      "pages": 424,
      "inc": 425,
      "ip": 426,
      "certified": 427,
      "break": 428,
      "##ze": 429,
      "mechanical": 430,
      "assistant": 431,
      "enter": 432,
      "conditions": 433,
      "##test": 434,
      "con": 435,
      "down": 436,
      "claim": 437,
      "\u2013": 438,
      "publish": 439,
      "compelling": 440,
      "campaigns": 441,
      "participates": 442,
      "expected": 443,
      "organize": 444,
      "open": 445,
      "cp": 446,
      "tracking": 447,
      "participation": 448,
      "retail": 449,
      "volume": 450,
      "calm": 451,
      "cad": 452,
      "like": 453,
      "##fi": 454,
      "##able": 455,
      "communication": 456,
      "##hee": 457,
      "researchers": 458,
      "variation": 459,
      "them": 460,
      "ph": 461,
      "spends": 462,
      "address": 463,
      "developing": 464,
      "probability": 465,
      "always": 466,
      "justice": 467,
      "##tp": 468,
      "print": 469,
      "scrutiny": 470,
      "advancing": 471,
      "which": 472,
      "conflicts": 473,
      "day": 474,
      "##rate": 475,
      "breach": 476,
      "link": 477,
      "##vi": 478,
      "proposals": 479,
      "insurance": 480,
      "participating": 481,
      "##ps": 482,
      "rails": 483,
      "infrastructure": 484,
      "brand": 485,
      "appropriate": 486,
      "accommodations": 487,
      "stand": 488,
      "corporation": 489,
      "site": 490,
      "ku": 491,
      "easily": 492,
      "chief": 493,
      "imports": 494,
      "future": 495,
      "agencies": 496,
      "technology": 497,
      "markets": 498,
      "shopping": 499,
      "between": 500,
      "##ln": 501,
      "ms": 502,
      "attend": 503,
      "hyper": 504,
      "consumption": 505,
      "case": 506,
      "managerial": 507,
      "changing": 508,
      "pipeline": 509,
      "friendly": 510,
      "documenting": 511,
      "connection": 512,
      "states": 513,
      "franchise": 514,
      "##ability": 515,
      "teams": 516,
      "synth": 517,
      "practical": 518,
      "within": 519,
      "organizations": 520,
      "##ali": 521,
      "pleasing": 522,
      "uses": 523,
      "journal": 524,
      "strict": 525,
      "##yt": 526,
      "passing": 527,
      "learning": 528,
      "##ake": 529,
      "other": 530,
      "structured": 531,
      "clarity": 532,
      "marketing": 533,
      "##meter": 534,
      "##ci": 535,
      "targeting": 536,
      "capabilities": 537,
      "draft": 538,
      "stacks": 539,
      "funds": 540,
      "people": 541,
      "hired": 542,
      "engines": 543,
      "staff": 544,
      "troubles": 545,
      "comfortable": 546,
      "##ct": 547,
      "reviewing": 548,
      "roi": 549,
      "explores": 550,
      "communities": 551,
      "set": 552,
      "engagement": 553,
      "angular": 554,
      "corporate": 555,
      "cm": 556,
      "programming": 557,
      "maintained": 558,
      "##st": 559,
      "jenkins": 560,
      "interviews": 561,
      "channel": 562,
      "starts": 563,
      "credibility": 564,
      "formats": 565,
      "ref": 566,
      "buyer": 567,
      "editors": 568,
      "masters": 569,
      "games": 570,
      "##now": 571,
      "size": 572,
      "interpret": 573,
      "detail": 574,
      "supervise": 575,
      "businesses": 576,
      "employer": 577,
      "codes": 578,
      "buildings": 579,
      "##ops": 580,
      "get": 581,
      "findings": 582,
      "factories": 583,
      "wire": 584,
      "similar": 585,
      "looking": 586,
      "law": 587,
      "advisor": 588,
      "techniques": 589,
      "issued": 590,
      "##ups": 591,
      "specialist": 592,
      "formal": 593,
      "plan": 594,
      "relevance": 595,
      "geographic": 596,
      "targeted": 597,
      "para": 598,
      "interact": 599,
      "placed": 600,
      "responsibilities": 601,
      "advocacy": 602,
      "checks": 603,
      "papers": 604,
      "##uing": 605,
      "competing": 606,
      "finding": 607,
      "interaction": 608,
      "primary": 609,
      "carbon": 610,
      "owner": 611,
      "node": 612,
      "previous": 613,
      "successful": 614,
      "often": 615,
      "purchases": 616,
      "increase": 617,
      "dia": 618,
      "adopt": 619,
      "ju": 620,
      "across": 621,
      "unusual": 622,
      "me": 623,
      "visit": 624,
      "complex": 625,
      "proto": 626,
      "location": 627,
      "consider": 628,
      "charities": 629,
      "least": 630,
      "interface": 631,
      "estate": 632,
      "what": 633,
      "defining": 634,
      "##ub": 635,
      "opt": 636,
      "after": 637,
      "##ro": 638,
      "organizing": 639,
      "hotel": 640,
      "real": 641,
      "suggests": 642,
      "allocated": 643,
      "##mer": 644,
      "\u2019": 645,
      "ethical": 646,
      "##que": 647,
      "data": 648,
      "prepares": 649,
      "officer": 650,
      "life": 651,
      "ones": 652,
      "php": 653,
      "attorneys": 654,
      "begin": 655,
      "extent": 656,
      "3d": 657,
      "industrial": 658,
      "identifying": 659,
      "cases": 660,
      "#": 661,
      "makers": 662,
      "inventory": 663,
      "joining": 664,
      "##rum": 665,
      "robots": 666,
      "inform": 667,
      "provides": 668,
      "on": 669,
      "##sse": 670,
      "climate": 671,
      "go": 672,
      "multiplayer": 673,
      "po": 674,
      "audience": 675,
      "id": 676,
      "private": 677,
      "code": 678,
      "vs": 679,
      "errors": 680,
      "stories": 681,
      "examples": 682,
      "pp": 683,
      "expert": 684,
      "##izing": 685,
      "inspection": 686,
      "mastering": 687,
      "tensor": 688,
      "witnesses": 689,
      "enable": 690,
      "buyers": 691,
      "##ng": 692,
      "lieu": 693,
      "food": 694,
      "functional": 695,
      "background": 696,
      "##li": 697,
      "traditional": 698,
      "agency": 699,
      "##or": 700,
      "managers": 701,
      "proper": 702,
      "compensate": 703,
      "##script": 704,
      "recruiting": 705,
      "rank": 706,
      "expertise": 707,
      "email": 708,
      "command": 709,
      "es": 710,
      "secure": 711,
      "##set": 712,
      "io": 713,
      "much": 714,
      "##hoot": 715,
      "native": 716,
      "flutter": 717,
      "sd": 718,
      "com": 719,
      "counsel": 720,
      "course": 721,
      "framework": 722,
      "an": 723,
      "specified": 724,
      "tuning": 725,
      "established": 726,
      "##nto": 727,
      "##ine": 728,
      "functionality": 729,
      "substitute": 730,
      "critical": 731,
      "consistency": 732,
      "thinking": 733,
      "shipping": 734,
      "##cise": 735,
      "##kit": 736,
      "consultant": 737,
      "reading": 738,
      "paid": 739,
      "helps": 740,
      "the": 741,
      "##turing": 742,
      "gathering": 743,
      "gaining": 744,
      "representations": 745,
      "##s": 746,
      "run": 747,
      "##ra": 748,
      "response": 749,
      "advice": 750,
      "##cratic": 751,
      "warehouses": 752,
      "##ries": 753,
      "##lib": 754,
      "accurate": 755,
      "innovative": 756,
      "although": 757,
      "web": 758,
      "prep": 759,
      "commerce": 760,
      "platforms": 761,
      "overcoming": 762,
      "virtual": 763,
      "sociology": 764,
      "opportunities": 765,
      "##ista": 766,
      "booking": 767,
      "transparency": 768,
      "expenses": 769,
      "action": 770,
      "$": 771,
      "printers": 772,
      "relational": 773,
      "sets": 774,
      "##ino": 775,
      "##ization": 776,
      "developed": 777,
      "##ab": 778,
      "contracts": 779,
      "particularly": 780,
      "applying": 781,
      "centers": 782,
      "involve": 783,
      "risk": 784,
      "completed": 785,
      "##len": 786,
      "district": 787,
      "coach": 788,
      "special": 789,
      "fresh": 790,
      "(": 791,
      "road": 792,
      "preparing": 793,
      "value": 794,
      "##end": 795,
      "policies": 796,
      "inspect": 797,
      "maintains": 798,
      "delays": 799,
      "freelance": 800,
      "visual": 801,
      "mandatory": 802,
      "##oh": 803,
      "advertising": 804,
      "master": 805,
      ",": 806,
      "minimal": 807,
      "define": 808,
      "##hering": 809,
      "perform": 810,
      "multi": 811,
      "require": 812,
      "environmental": 813,
      "context": 814,
      "television": 815,
      "##ful": 816,
      "##torm": 817,
      "cs": 818,
      "variety": 819,
      "sensitive": 820,
      "objectives": 821,
      "preference": 822,
      "fulfill": 823,
      "my": 824,
      "rd": 825,
      "##oop": 826,
      "maintain": 827,
      "assets": 828,
      "employ": 829,
      "reds": 830,
      "preferred": 831,
      "##po": 832,
      "have": 833,
      "diagnostic": 834,
      "launches": 835,
      "encounter": 836,
      "activities": 837,
      "##personal": 838,
      "generating": 839,
      "place": 840,
      "##il": 841,
      "space": 842,
      "push": 843,
      "sample": 844,
      "designer": 845,
      "conducting": 846,
      "usa": 847,
      "supervisory": 848,
      "val": 849,
      "suppliers": 850,
      "##ify": 851,
      "bodies": 852,
      "take": 853,
      "manufacturing": 854,
      "##ime": 855,
      "starting": 856,
      "##press": 857,
      "##cp": 858,
      "simulations": 859,
      "payment": 860,
      "bi": 861,
      "containers": 862,
      "desires": 863,
      "rankings": 864,
      "promote": 865,
      "publishing": 866,
      "intended": 867,
      "ji": 868,
      "text": 869,
      "##print": 870,
      "##ango": 871,
      "vision": 872,
      "##urer": 873,
      "##ants": 874,
      "design": 875,
      "mis": 876,
      "scaling": 877,
      "donors": 878,
      "sharing": 879,
      "blend": 880,
      "##born": 881,
      "need": 882,
      "explaining": 883,
      "##j": 884,
      "language": 885,
      "bureau": 886,
      "test": 887,
      "back": 888,
      "researching": 889,
      "failures": 890,
      "sites": 891,
      "valid": 892,
      "costs": 893,
      "dax": 894,
      "societal": 895,
      "x": 896,
      "ze": 897,
      "iso": 898,
      "anti": 899,
      "ge": 900,
      "correct": 901,
      "sensors": 902,
      "guidelines": 903,
      "falls": 904,
      "requires": 905,
      "expectations": 906,
      "easy": 907,
      "marin": 908,
      "giants": 909,
      "benefit": 910,
      "transformation": 911,
      "oriented": 912,
      "process": 913,
      "pharmaceuticals": 914,
      "##camp": 915,
      "organized": 916,
      "delivers": 917,
      "faces": 918,
      "recommend": 919,
      "fields": 920,
      "focus": 921,
      "land": 922,
      "college": 923,
      "startup": 924,
      "beneficial": 925,
      "think": 926,
      "##line": 927,
      "understand": 928,
      "##chi": 929,
      "goal": 930,
      "##gur": 931,
      "latest": 932,
      "plus": 933,
      "adjusting": 934,
      "launched": 935,
      "lightning": 936,
      "understands": 937,
      "creating": 938,
      "gameplay": 939,
      "conduct": 940,
      "ensure": 941,
      "hybrid": 942,
      "commonly": 943,
      "engineers": 944,
      "portfolio": 945,
      "nu": 946,
      "achieve": 947,
      "product": 948,
      "##dog": 949,
      "##uating": 950,
      "##drive": 951,
      "focuses": 952,
      "are": 953,
      "additional": 954,
      "prom": 955,
      "additionally": 956,
      "success": 957,
      "disputed": 958,
      "z": 959,
      "sketch": 960,
      "properly": 961,
      "offer": 962,
      "chain": 963,
      "rely": 964,
      "##zation": 965,
      "landscape": 966,
      "lights": 967,
      "generation": 968,
      "coordinated": 969,
      "including": 970,
      "research": 971,
      "smoothly": 972,
      "nonprofit": 973,
      "twitter": 974,
      "overseeing": 975,
      "differing": 976,
      "determines": 977,
      "follow": 978,
      "arranging": 979,
      "##b": 980,
      "facebook": 981,
      "communicate": 982,
      "manipulation": 983,
      "over": 984,
      "above": 985,
      "145": 986,
      "bridge": 987,
      "researcher": 988,
      "unix": 989,
      "side": 990,
      "account": 991,
      "ko": 992,
      "ni": 993,
      "competition": 994,
      "regression": 995,
      "cluster": 996,
      "once": 997,
      "remain": 998,
      "recognized": 999,
      "artificial": 1000,
      "simultaneously": 1001,
      "simulation": 1002,
      "sp": 1003,
      "consumer": 1004,
      "computer": 1005,
      "company": 1006,
      "present": 1007,
      "pursue": 1008,
      "manual": 1009,
      "handles": 1010,
      "##e": 1011,
      "policy": 1012,
      "owners": 1013,
      "preferring": 1014,
      "rising": 1015,
      "competitors": 1016,
      "##ry": 1017,
      "training": 1018,
      "director": 1019,
      "records": 1020,
      "tale": 1021,
      "apache": 1022,
      "##dm": 1023,
      "guide": 1024,
      "ins": 1025,
      "qualify": 1026,
      "expense": 1027,
      "assisting": 1028,
      "proceedings": 1029,
      "media": 1030,
      "provide": 1031,
      "writer": 1032,
      "testing": 1033,
      "labor": 1034,
      "buys": 1035,
      "heavily": 1036,
      "insight": 1037,
      "custom": 1038,
      "##asi": 1039,
      "constantly": 1040,
      ".": 1041,
      "could": 1042,
      "internal": 1043,
      "engineer": 1044,
      "conversations": 1045,
      "under": 1046,
      "outlook": 1047,
      "tourism": 1048,
      "technical": 1049,
      "ar": 1050,
      "individual": 1051,
      "files": 1052,
      "economics": 1053,
      "editing": 1054,
      "efficient": 1055,
      "commercial": 1056,
      "contribute": 1057,
      "sectors": 1058,
      "choose": 1059,
      "de": 1060,
      "relic": 1061,
      "put": 1062,
      "##imi": 1063,
      "pba": 1064,
      "efficiency": 1065,
      "prior": 1066,
      "retention": 1067,
      "being": 1068,
      "reach": 1069,
      "##m": 1070,
      "vu": 1071,
      "both": 1072,
      "depend": 1073,
      "##re": 1074,
      "level": 1075,
      "results": 1076,
      "mentor": 1077,
      "firm": 1078,
      "annual": 1079,
      "##ive": 1080,
      "breakdown": 1081,
      "be": 1082,
      "helpful": 1083,
      "fire": 1084,
      "##bu": 1085,
      "brains": 1086,
      "##ft": 1087,
      "fitness": 1088,
      "dissatisfied": 1089,
      "recommends": 1090,
      "sensor": 1091,
      "aesthetics": 1092,
      "sound": 1093,
      "seek": 1094,
      "throughout": 1095,
      "robotic": 1096,
      "architecture": 1097,
      "tre": 1098,
      "##holder": 1099,
      "ah": 1100,
      "organic": 1101,
      "recommendations": 1102,
      "html": 1103,
      "daily": 1104,
      "loyalty": 1105,
      "literature": 1106,
      "##sing": 1107,
      "##sible": 1108,
      "deal": 1109,
      "situations": 1110,
      "##block": 1111,
      "##xi": 1112,
      "catalog": 1113,
      "courses": 1114,
      "resolving": 1115,
      "instead": 1116,
      "lower": 1117,
      "150": 1118,
      "visually": 1119,
      "common": 1120,
      "snow": 1121,
      "##lik": 1122,
      "engages": 1123,
      "capture": 1124,
      "of": 1125,
      "analysis": 1126,
      "budgets": 1127,
      "recent": 1128,
      "according": 1129,
      "increasing": 1130,
      "create": 1131,
      "however": 1132,
      "zoom": 1133,
      "novel": 1134,
      "oracle": 1135,
      "ethics": 1136,
      "donor": 1137,
      "gather": 1138,
      "q": 1139,
      "services": 1140,
      "##real": 1141,
      "fl": 1142,
      "##lo": 1143,
      "##view": 1144,
      "languages": 1145,
      "hospitality": 1146,
      "responding": 1147,
      "##ncy": 1148,
      "they": 1149,
      "number": 1150,
      "pay": 1151,
      "collecting": 1152,
      "operate": 1153,
      "advising": 1154,
      "remotely": 1155,
      "##izes": 1156,
      "team": 1157,
      "political": 1158,
      "protocols": 1159,
      "demands": 1160,
      "rendering": 1161,
      "written": 1162,
      "hot": 1163,
      "necessary": 1164,
      "availability": 1165,
      "suite": 1166,
      "cancellation": 1167,
      "spaces": 1168,
      "word": 1169,
      "inspections": 1170,
      "fair": 1171,
      "##ware": 1172,
      "##d": 1173,
      "dealing": 1174,
      "edit": 1175,
      "change": 1176,
      "oversees": 1177,
      "orchestra": 1178,
      "##ku": 1179,
      "met": 1180,
      "v": 1181,
      "listings": 1182,
      "attention": 1183,
      "##fs": 1184,
      "##ne": 1185,
      "##er": 1186,
      "advance": 1187,
      "regularly": 1188,
      "evaluate": 1189,
      "fran": 1190,
      "products": 1191,
      "##tify": 1192,
      "bottle": 1193,
      "education": 1194,
      "60": 1195,
      "presence": 1196,
      "description": 1197,
      "problem": 1198,
      "improvements": 1199,
      "##lab": 1200,
      "analytical": 1201,
      "broker": 1202,
      "##balance": 1203,
      "kan": 1204,
      "labeled": 1205,
      "order": 1206,
      "enroll": 1207,
      "graphic": 1208,
      "##log": 1209,
      "creep": 1210,
      "##bo": 1211,
      "orders": 1212,
      "survey": 1213,
      "distributed": 1214,
      "##l": 1215,
      "challenges": 1216,
      "obtain": 1217,
      "act": 1218,
      "##al": 1219,
      "promotional": 1220,
      "lack": 1221,
      "fundraising": 1222,
      "price": 1223,
      "allocation": 1224,
      "cd": 1225,
      "i": 1226,
      "lexi": 1227,
      "even": 1228,
      "officials": 1229,
      "experimenting": 1230,
      "160": 1231,
      "ambitious": 1232,
      "alongside": 1233,
      "excel": 1234,
      "follows": 1235,
      "paced": 1236,
      "libraries": 1237,
      "solve": 1238,
      "110": 1239,
      "##tors": 1240,
      "might": 1241,
      "interviewing": 1242,
      "interview": 1243,
      "timely": 1244,
      "##ot": 1245,
      "mini": 1246,
      "pace": 1247,
      "na": 1248,
      "security": 1249,
      "choosing": 1250,
      "mail": 1251,
      "executives": 1252,
      "post": 1253,
      "stack": 1254,
      "##ask": 1255,
      "operates": 1256,
      "stakeholders": 1257,
      "varies": 1258,
      "star": 1259,
      "return": 1260,
      "conflicting": 1261,
      "##ulin": 1262,
      "enterprise": 1263,
      "website": 1264,
      "market": 1265,
      "interfaces": 1266,
      "threats": 1267,
      "quan": 1268,
      "delivering": 1269,
      "premium": 1270,
      "contact": 1271,
      "join": 1272,
      "coordinator": 1273,
      "developer": 1274,
      "regulatory": 1275,
      "or": 1276,
      "basics": 1277,
      "##le": 1278,
      "arise": 1279,
      "approved": 1280,
      "##sam": 1281,
      "employers": 1282,
      "##q": 1283,
      "##para": 1284,
      "table": 1285,
      "new": 1286,
      "animation": 1287,
      "projects": 1288,
      "right": 1289,
      "learn": 1290,
      "scientists": 1291,
      "tech": 1292,
      "reviews": 1293,
      "##ow": 1294,
      "delivery": 1295,
      "load": 1296,
      "neural": 1297,
      "##ize": 1298,
      "addressing": 1299,
      "m": 1300,
      "pcs": 1301,
      "involved": 1302,
      "deadline": 1303,
      "audit": 1304,
      "select": 1305,
      "casualty": 1306,
      "##o": 1307,
      "raised": 1308,
      "yourself": 1309,
      "members": 1310,
      "more": 1311,
      "measuring": 1312,
      "bug": 1313,
      "duties": 1314,
      "##tream": 1315,
      "dynamic": 1316,
      "lab": 1317,
      "app": 1318,
      "analyzing": 1319,
      "problems": 1320,
      "solutions": 1321,
      "feature": 1322,
      "##word": 1323,
      "aerospace": 1324,
      "##pile": 1325,
      "term": 1326,
      "optimization": 1327,
      "into": 1328,
      "accessible": 1329,
      "running": 1330,
      "##3": 1331,
      "implement": 1332,
      "licenses": 1333,
      "screaming": 1334,
      "quickly": 1335,
      "##ts": 1336,
      "strong": 1337,
      "##as": 1338,
      "qc": 1339,
      "digital": 1340,
      "required": 1341,
      "considerations": 1342,
      "analyst": 1343,
      "financial": 1344,
      "all": 1345,
      "improving": 1346,
      "performing": 1347,
      "##ate": 1348,
      "sources": 1349,
      "showcase": 1350,
      "collaborative": 1351,
      "retrospective": 1352,
      "collaboration": 1353,
      "microsoft": 1354,
      "##pen": 1355,
      "##ities": 1356,
      "goods": 1357,
      "cleaning": 1358,
      "discuss": 1359,
      "as": 1360,
      "generate": 1361,
      "guidance": 1362,
      "position": 1363,
      "function": 1364,
      "sector": 1365,
      "##frame": 1366,
      "rev": 1367,
      "##point": 1368,
      "shape": 1369,
      "strategies": 1370,
      "##pt": 1371,
      "excellent": 1372,
      "at": 1373,
      "sometimes": 1374,
      "relevant": 1375,
      "res": 1376,
      "boost": 1377,
      "customers": 1378,
      "surveys": 1379,
      "routine": 1380,
      "components": 1381,
      "program": 1382,
      "##ons": 1383,
      "facing": 1384,
      "remaining": 1385,
      "existing": 1386,
      "reliability": 1387,
      "shop": 1388,
      "determining": 1389,
      "##ble": 1390,
      "expand": 1391,
      "##sed": 1392,
      "##law": 1393,
      "settings": 1394,
      "field": 1395,
      "improve": 1396,
      "minute": 1397,
      "spark": 1398,
      "scale": 1399,
      "script": 1400,
      "bugs": 1401,
      "planning": 1402,
      "refining": 1403,
      "yes": 1404,
      "continually": 1405,
      "##matic": 1406,
      "##ces": 1407,
      "##y": 1408,
      "information": 1409,
      "range": 1410,
      "up": 1411,
      "##c": 1412,
      "##wall": 1413,
      "academic": 1414,
      "aw": 1415,
      "##est": 1416,
      "integrated": 1417,
      "##onate": 1418,
      "flexibility": 1419,
      "reduction": 1420,
      "license": 1421,
      "?": 1422,
      "statistics": 1423,
      "outcomes": 1424,
      "##iti": 1425,
      "stability": 1426,
      "definition": 1427,
      "essential": 1428,
      "career": 1429,
      "access": 1430,
      "penetrate": 1431,
      "##io": 1432,
      "methods": 1433,
      "##ary": 1434,
      "##os": 1435,
      "community": 1436,
      "acceptance": 1437,
      "game": 1438,
      "upwards": 1439,
      "retailers": 1440,
      "sci": 1441,
      "supports": 1442,
      "fixing": 1443,
      "deep": 1444,
      "securing": 1445,
      "banking": 1446,
      "make": 1447,
      "rapid": 1448,
      "help": 1449,
      "active": 1450,
      "skill": 1451,
      "units": 1452,
      "user": 1453,
      "agile": 1454,
      "focused": 1455,
      "##out": 1456,
      "emphasis": 1457,
      "red": 1458,
      "works": 1459,
      "procurement": 1460,
      "technological": 1461,
      "##r": 1462,
      "engine": 1463,
      "##time": 1464,
      "allow": 1465,
      "55": 1466,
      "picking": 1467,
      "urgent": 1468,
      "##gist": 1469,
      "asa": 1470,
      "operations": 1471,
      "predict": 1472,
      "evolving": 1473,
      "##llo": 1474,
      "interpretation": 1475,
      "control": 1476,
      "versions": 1477,
      "heavy": 1478,
      "##back": 1479,
      "experience": 1480,
      "studio": 1481,
      "integrating": 1482,
      "along": 1483,
      "scala": 1484,
      "complexity": 1485,
      "purchasing": 1486,
      "resistance": 1487,
      "short": 1488,
      "whether": 1489,
      "arrangements": 1490,
      "video": 1491,
      "alignment": 1492,
      "major": 1493,
      "hat": 1494,
      "options": 1495,
      "working": 1496,
      "tasks": 1497,
      "safety": 1498,
      "000": 1499,
      "current": 1500,
      "automated": 1501,
      "how": 1502,
      "remove": 1503,
      "generally": 1504,
      "potential": 1505,
      "progress": 1506,
      "contractors": 1507,
      "prospects": 1508,
      "institutions": 1509,
      "d": 1510,
      "familiarity": 1511,
      "consulting": 1512,
      "##ages": 1513,
      "creators": 1514,
      "communicated": 1515,
      "stress": 1516,
      "collect": 1517,
      "##ally": 1518,
      "installing": 1519,
      "leading": 1520,
      "documents": 1521,
      "telecommunications": 1522,
      "core": 1523,
      "consult": 1524,
      "presenting": 1525,
      "record": 1526,
      "consultants": 1527,
      "inter": 1528,
      "programs": 1529,
      "damaged": 1530,
      "expect": 1531,
      "progression": 1532,
      "seam": 1533,
      "become": 1534,
      "dissemination": 1535,
      "used": 1536,
      "##cies": 1537,
      "occasional": 1538,
      "expanding": 1539,
      "##cie": 1540,
      "some": 1541,
      "linear": 1542,
      "pga": 1543,
      "##rus": 1544,
      "phd": 1545,
      "international": 1546,
      "decision": 1547,
      "among": 1548,
      "tr": 1549,
      "rep": 1550,
      "employee": 1551,
      "planner": 1552,
      "clothing": 1553,
      "coverage": 1554,
      "approve": 1555,
      "its": 1556,
      "assist": 1557,
      "regional": 1558,
      "legal": 1559,
      "big": 1560,
      "interactions": 1561,
      "based": 1562,
      "recovery": 1563,
      "profits": 1564,
      "##chan": 1565,
      "workshops": 1566,
      "professionals": 1567,
      "requests": 1568,
      "conflict": 1569,
      "regulations": 1570,
      "wide": 1571,
      "nos": 1572,
      "procedures": 1573,
      "assists": 1574,
      "use": 1575,
      "acquisition": 1576,
      "vendor": 1577,
      "visibility": 1578,
      "annually": 1579,
      "adjust": 1580,
      "specialization": 1581,
      "fine": 1582,
      "measure": 1583,
      "##ss": 1584,
      "history": 1585,
      "mora": 1586,
      "third": 1587,
      "frustrated": 1588,
      "##ex": 1589,
      "include": 1590,
      "##aj": 1591,
      "regions": 1592,
      "google": 1593,
      "python": 1594,
      "such": 1595,
      "should": 1596,
      "clients": 1597,
      "almost": 1598,
      "levels": 1599,
      "better": 1600,
      "##tas": 1601,
      "having": 1602,
      "##h": 1603,
      "principal": 1604,
      "75": 1605,
      "motivation": 1606,
      "know": 1607,
      "administrators": 1608,
      "react": 1609,
      "buying": 1610,
      "consistently": 1611,
      "implementation": 1612,
      "##eth": 1613,
      "##ter": 1614,
      "balancing": 1615,
      "higher": 1616,
      "##x": 1617,
      "art": 1618,
      "emerging": 1619,
      "showing": 1620,
      "can": 1621,
      "##p": 1622,
      "device": 1623,
      "console": 1624,
      "exposure": 1625,
      "requiring": 1626,
      "intellectual": 1627,
      "graduate": 1628,
      "mon": 1629,
      "etc": 1630,
      "promotions": 1631,
      "hc": 1632,
      "##ten": 1633,
      "removing": 1634,
      "informed": 1635,
      "universities": 1636,
      "conservation": 1637,
      "plans": 1638,
      "difficulties": 1639,
      "smaller": 1640,
      "understood": 1641,
      "##zes": 1642,
      "tc": 1643,
      "predicting": 1644,
      "studies": 1645,
      "##ncies": 1646,
      "que": 1647,
      "school": 1648,
      "##mp": 1649,
      "outside": 1650,
      "ai": 1651,
      "following": 1652,
      "quantum": 1653,
      "im": 1654,
      "##gg": 1655,
      "filed": 1656,
      "alert": 1657,
      "ways": 1658,
      "progresses": 1659,
      "sim": 1660,
      "##hc": 1661,
      "demonstrate": 1662,
      "full": 1663,
      "suggesting": 1664,
      "effective": 1665,
      "those": 1666,
      "now": 1667,
      "##work": 1668,
      "sprint": 1669,
      "channels": 1670,
      "also": 1671,
      "ticket": 1672,
      "battery": 1673,
      "showcasing": 1674,
      "conversions": 1675,
      "leaders": 1676,
      "configuration": 1677,
      "part": 1678,
      "integration": 1679,
      "updates": 1680,
      "click": 1681,
      "nielsen": 1682,
      "when": 1683,
      "artists": 1684,
      "##pl": 1685,
      "##eus": 1686,
      "in": 1687,
      "rules": 1688,
      "##ous": 1689,
      "does": 1690,
      "##gating": 1691,
      "environments": 1692,
      "##tor": 1693,
      "automotive": 1694,
      "sizes": 1695,
      "clearly": 1696,
      "##zing": 1697,
      "facilitate": 1698,
      "exam": 1699,
      "fix": 1700,
      "administrator": 1701,
      "##king": 1702,
      "trajectory": 1703,
      "vast": 1704,
      "##up": 1705,
      "attends": 1706,
      "mba": 1707,
      "building": 1708,
      "smooth": 1709,
      "skilled": 1710,
      "panda": 1711,
      "##bility": 1712,
      "task": 1713,
      "##chang": 1714,
      "mathematics": 1715,
      "specifications": 1716,
      "demonstrating": 1717,
      "deny": 1718,
      "busy": 1719,
      "messy": 1720,
      "un": 1721,
      "property": 1722,
      "suggest": 1723,
      "advises": 1724,
      "##mun": 1725,
      "##gging": 1726,
      "collects": 1727,
      "constant": 1728,
      "interests": 1729,
      "detailed": 1730,
      "needed": 1731,
      "e": 1732,
      "aligned": 1733,
      "responsive": 1734,
      "during": 1735,
      "hands": 1736,
      "role": 1737,
      "assessment": 1738,
      "analytics": 1739,
      "slack": 1740,
      "prestigious": 1741,
      "builder": 1742,
      "started": 1743,
      "spy": 1744,
      "proficient": 1745,
      "settlements": 1746,
      "##ms": 1747,
      "avoid": 1748,
      "misunderstanding": 1749,
      "##au": 1750,
      "adopting": 1751,
      "small": 1752,
      "usually": 1753,
      "start": 1754,
      "and": 1755,
      "100": 1756,
      "limited": 1757,
      "journals": 1758,
      "state": 1759,
      "trade": 1760,
      "ct": 1761,
      "si": 1762,
      "fast": 1763,
      "transactions": 1764,
      "##ban": 1765,
      "medium": 1766,
      "dj": 1767,
      "##pis": 1768,
      "favorable": 1769,
      "landing": 1770,
      "enhancing": 1771,
      "##k": 1772,
      "organizational": 1773,
      "cross": 1774,
      "scripts": 1775,
      "certification": 1776,
      "supporting": 1777,
      "##pal": 1778,
      "junior": 1779,
      "keeping": 1780,
      "##cing": 1781,
      "had": 1782,
      "storage": 1783,
      "analyses": 1784,
      "begins": 1785,
      "behavior": 1786,
      "submissions": 1787,
      "president": 1788,
      "80": 1789,
      "facilities": 1790,
      "to": 1791,
      "abilities": 1792,
      "train": 1793,
      "##du": 1794,
      "##rou": 1795,
      "footprints": 1796,
      "tablets": 1797,
      "scheduling": 1798,
      "##ed": 1799,
      "review": 1800,
      "runs": 1801,
      "efficiently": 1802,
      "##su": 1803,
      "taking": 1804,
      "positive": 1805,
      "maximum": 1806,
      "participants": 1807,
      "partners": 1808,
      "requirements": 1809,
      "roles": 1810,
      "powered": 1811,
      "larger": 1812,
      "websites": 1813,
      "variations": 1814,
      "samples": 1815,
      "graphs": 1816,
      "comply": 1817,
      "assurance": 1818,
      "affiliates": 1819,
      "academia": 1820,
      "foster": 1821,
      "typically": 1822,
      "answering": 1823,
      "qu": 1824,
      "diverse": 1825,
      "execution": 1826,
      "sale": 1827,
      "##fect": 1828,
      "laws": 1829,
      "95": 1830,
      "service": 1831,
      "contributes": 1832,
      "##writer": 1833,
      "proficiency": 1834,
      "first": 1835,
      "sheets": 1836,
      "related": 1837,
      "criminal": 1838,
      "sea": 1839,
      "performance": 1840,
      "useful": 1841,
      "modeling": 1842,
      "setting": 1843,
      "confluence": 1844,
      "+": 1845,
      "maintaining": 1846,
      "##ce": 1847,
      "supported": 1848,
      "waste": 1849,
      "experiments": 1850,
      "##watch": 1851,
      "robot": 1852,
      "proposed": 1853,
      "##tori": 1854,
      "assistants": 1855,
      "west": 1856,
      "labs": 1857,
      "party": 1858,
      "event": 1859,
      "disruption": 1860,
      "vr": 1861,
      "target": 1862,
      "will": 1863,
      "structures": 1864,
      "main": 1865,
      "clean": 1866,
      "speed": 1867,
      "assessing": 1868,
      "compliant": 1869,
      "human": 1870,
      "apply": 1871,
      "studios": 1872,
      "##en": 1873,
      "##leg": 1874,
      "that": 1875,
      "top": 1876,
      "prepare": 1877,
      "##less": 1878,
      "vary": 1879,
      "getting": 1880,
      "stat": 1881,
      "models": 1882,
      "development": 1883,
      "standards": 1884,
      "each": 1885,
      "convincing": 1886,
      "##ibility": 1887,
      "##gio": 1888,
      "presentation": 1889,
      "many": 1890,
      "networks": 1891,
      "technologies": 1892,
      "investigations": 1893,
      "available": 1894,
      "extensive": 1895,
      "45": 1896,
      "experimentation": 1897,
      "resolutions": 1898,
      "addressed": 1899,
      "metric": 1900,
      "outlets": 1901,
      "proprietary": 1902,
      "drive": 1903,
      "azure": 1904,
      "adapting": 1905,
      "area": 1906,
      "groups": 1907,
      "databases": 1908,
      "prototypes": 1909,
      "##ding": 1910,
      "linux": 1911,
      "clear": 1912,
      "keeps": 1913,
      "consistent": 1914,
      "influence": 1915,
      "mechanics": 1916,
      "calculate": 1917,
      "calculating": 1918,
      "##na": 1919,
      "content": 1920,
      "sales": 1921,
      "charts": 1922,
      "reliable": 1923,
      "hosting": 1924,
      "outdated": 1925,
      "##asurable": 1926,
      "global": 1927,
      "depth": 1928,
      "standing": 1929,
      "tailored": 1930,
      "##z": 1931,
      "goals": 1932,
      "ideas": 1933,
      "drafting": 1934,
      "points": 1935,
      "demand": 1936,
      "##ve": 1937,
      "consultancy": 1938,
      "social": 1939,
      "vis": 1940,
      "manipulating": 1941,
      "executive": 1942,
      "##ructured": 1943,
      "##ation": 1944,
      "negotiating": 1945,
      "auction": 1946,
      "factors": 1947,
      "way": 1948,
      "risks": 1949,
      "bases": 1950,
      "radio": 1951,
      "online": 1952,
      "terminology": 1953,
      "gateway": 1954,
      "retain": 1955,
      "##ises": 1956,
      "##plin": 1957,
      "behaviors": 1958,
      "intuitive": 1959,
      "manager": 1960,
      "direction": 1961,
      "thorough": 1962,
      "meeting": 1963,
      "taught": 1964,
      "builds": 1965,
      "##osi": 1966,
      "colleagues": 1967,
      "replication": 1968,
      "##ing": 1969,
      "tools": 1970,
      "rapidly": 1971,
      "world": 1972,
      "united": 1973,
      "planners": 1974,
      "mobile": 1975,
      "s": 1976,
      "##master": 1977,
      "algebra": 1978,
      "client": 1979,
      "power": 1980,
      "overall": 1981,
      "##fra": 1982,
      "government": 1983,
      "bash": 1984,
      "participate": 1985,
      "editorial": 1986,
      "individuals": 1987,
      "initiatives": 1988,
      "##ories": 1989,
      "advertisements": 1990,
      "conducts": 1991,
      "decide": 1992,
      "strategic": 1993,
      "&": 1994,
      "employees": 1995,
      "damages": 1996,
      "respond": 1997,
      "salaries": 1998,
      "region": 1999,
      "adobe": 2000,
      "ios": 2001,
      "connectivity": 2002,
      "earn": 2003,
      "sure": 2004,
      "##link": 2005,
      "ahead": 2006,
      "operational": 2007,
      "utilized": 2008,
      "electronics": 2009,
      "compatibility": 2010,
      "##py": 2011,
      "offerings": 2012,
      "properties": 2013,
      "typical": 2014,
      "##ch": 2015,
      "administration": 2016,
      "preferences": 2017,
      "ambiguous": 2018,
      "devices": 2019,
      "date": 2020,
      "tanks": 2021,
      "words": 2022,
      "vice": 2023,
      "off": 2024,
      "bid": 2025,
      "study": 2026,
      "prices": 2027,
      "move": 2028,
      "api": 2029,
      "##ati": 2030,
      "audiences": 2031,
      "ads": 2032,
      "sm": 2033,
      "trial": 2034,
      "architectural": 2035,
      "foundation": 2036,
      "##man": 2037,
      "path": 2038,
      "ongoing": 2039,
      "appropriately": 2040,
      "educational": 2041,
      "##aries": 2042,
      "industries": 2043,
      "hire": 2044,
      "##ication": 2045,
      "stream": 2046,
      "creative": 2047,
      "different": 2048,
      "accuracy": 2049,
      "complaints": 2050,
      "resolution": 2051,
      "achieving": 2052,
      "windows": 2053,
      "promotion": 2054,
      "applications": 2055,
      "corporations": 2056,
      "volunteer": 2057,
      "##go": 2058,
      "adjustments": 2059,
      "evidence": 2060,
      "late": 2061,
      "##ia": 2062,
      "driven": 2063,
      "completing": 2064,
      "scientist": 2065,
      "most": 2066,
      "includes": 2067,
      "backup": 2068,
      "helping": 2069,
      "sufficient": 2070,
      "makes": 2071,
      "managed": 2072,
      "non": 2073,
      "##omp": 2074,
      "attending": 2075,
      "tensions": 2076,
      "deployment": 2077,
      "##te": 2078,
      "mapping": 2079,
      "addresses": 2080,
      "calendar": 2081,
      "regular": 2082,
      "systems": 2083,
      "last": 2084,
      "front": 2085,
      "physics": 2086,
      "implemented": 2087,
      "##liness": 2088,
      "intelligent": 2089,
      "interpreting": 2090,
      "listening": 2091,
      "issues": 2092,
      "basis": 2093,
      "increases": 2094,
      "##cala": 2095,
      "##ly": 2096,
      "brands": 2097,
      "qualifications": 2098,
      "block": 2099,
      "billing": 2100,
      "enterprises": 2101,
      "u": 2102,
      "logs": 2103,
      "basic": 2104,
      "towards": 2105,
      "##asa": 2106,
      "licensed": 2107,
      "insights": 2108,
      "monitors": 2109,
      "chartered": 2110,
      "stable": 2111,
      "high": 2112,
      "hub": 2113,
      "deliver": 2114,
      "specialized": 2115,
      "feasible": 2116,
      "time": 2117,
      "route": 2118,
      "compensation": 2119,
      "principles": 2120,
      "logistics": 2121,
      "auto": 2122,
      "##ise": 2123,
      "deploy": 2124,
      "lawyers": 2125,
      "automation": 2126,
      "dr": 2127,
      "competitive": 2128,
      "spreads": 2129,
      "year": 2130,
      "decides": 2131,
      "collaborating": 2132,
      "strategy": 2133,
      "pursued": 2134,
      "resources": 2135,
      "psychology": 2136,
      "various": 2137,
      "verbal": 2138,
      "either": 2139,
      "exports": 2140,
      "experienced": 2141,
      "adoption": 2142,
      "execute": 2143,
      "flexible": 2144,
      "balance": 2145,
      "unity": 2146,
      "strengthen": 2147,
      "type": 2148,
      "production": 2149,
      "##th": 2150,
      "theory": 2151,
      "securely": 2152,
      "adhere": 2153,
      "industry": 2154,
      "derive": 2155,
      "##nd": 2156,
      "ui": 2157,
      "jobs": 2158,
      "camps": 2159,
      "servers": 2160,
      "paperwork": 2161,
      "possibility": 2162,
      "senior": 2163,
      "vp": 2164,
      "blog": 2165,
      "sap": 2166,
      "changes": 2167,
      "moving": 2168,
      "equivalent": 2169,
      "##com": 2170,
      "departments": 2171,
      "investment": 2172,
      "support": 2173,
      "ultimately": 2174,
      "not": 2175,
      "system": 2176,
      "prospective": 2177,
      "tight": 2178,
      "b": 2179,
      "rates": 2180,
      "is": 2181,
      "ho": 2182,
      "page": 2183,
      "hospitals": 2184,
      "strata": 2185,
      "around": 2186,
      "good": 2187,
      "evaluation": 2188,
      "mat": 2189,
      "integrity": 2190,
      "society": 2191,
      "crashes": 2192,
      "seo": 2193,
      "unclear": 2194,
      "cities": 2195,
      "ad": 2196,
      "point": 2197,
      "meetings": 2198,
      "equally": 2199,
      "moves": 2200,
      "obstacles": 2201,
      "chat": 2202,
      "robotics": 2203,
      "##ef": 2204,
      "enhance": 2205,
      "dev": 2206,
      "maze": 2207,
      "designing": 2208,
      "responsible": 2209,
      "##hu": 2210,
      "ups": 2211,
      "widely": 2212,
      "commissions": 2213,
      "android": 2214,
      "##neck": 2215,
      "concerns": 2216,
      "health": 2217,
      "values": 2218,
      "aspects": 2219,
      "with": 2220,
      "woo": 2221,
      "using": 2222,
      "jam": 2223,
      "scope": 2224,
      "recommended": 2225,
      "maya": 2226,
      "configurations": 2227,
      "knowledge": 2228,
      "document": 2229,
      "##runner": 2230,
      "closely": 2231,
      "pain": 2232,
      "publication": 2233,
      "##ies": 2234,
      "becoming": 2235,
      "monitor": 2236,
      "environment": 2237,
      "prefer": 2238,
      "##tagram": 2239,
      "90": 2240,
      "concepts": 2241,
      "end": 2242,
      "collaborate": 2243,
      "inaccurate": 2244,
      "stay": 2245,
      "tunes": 2246,
      "amounts": 2247,
      "processes": 2248,
      "contributing": 2249,
      "manage": 2250,
      "analyze": 2251,
      "great": 2252,
      "intervention": 2253,
      "implements": 2254,
      "supervisor": 2255,
      "documentation": 2256,
      "c": 2257,
      "relations": 2258,
      "organization": 2259,
      "mal": 2260,
      "##ic": 2261,
      "enough": 2262,
      "bachelor": 2263,
      "reporting": 2264,
      "##ede": 2265,
      "reaching": 2266,
      "investigating": 2267,
      "database": 2268,
      "stores": 2269,
      "##sa": 2270,
      "traffic": 2271,
      "spent": 2272,
      "frequently": 2273,
      "st": 2274,
      "attorney": 2275,
      "geographical": 2276,
      "os": 2277,
      "highly": 2278,
      "##es": 2279,
      "priorities": 2280,
      "designers": 2281,
      "adequate": 2282,
      "resolve": 2283,
      "mark": 2284,
      "office": 2285,
      "ro": 2286,
      "tickets": 2287,
      "chosen": 2288,
      "business": 2289,
      "play": 2290,
      "plot": 2291,
      "operation": 2292,
      "ceremonies": 2293,
      "incidents": 2294,
      "stays": 2295,
      "write": 2296,
      "correspondence": 2297,
      "public": 2298,
      "schedules": 2299,
      "##it": 2300,
      "analysts": 2301,
      "effectiveness": 2302,
      "these": 2303,
      "empathy": 2304,
      "##ean": 2305,
      "embedded": 2306,
      "dedicated": 2307,
      "mix": 2308,
      "##ising": 2309,
      "bal": 2310,
      "algorithms": 2311,
      "mc": 2312,
      "70": 2313,
      "##code": 2314,
      "usage": 2315,
      "amadeus": 2316,
      "j": 2317,
      "cloud": 2318,
      "impact": 2319,
      "key": 2320,
      "sessions": 2321,
      "energy": 2322,
      "##pace": 2323,
      "investigator": 2324,
      "ability": 2325,
      "centered": 2326,
      "affiliate": 2327,
      "tags": 2328,
      "fundamental": 2329,
      "briefs": 2330,
      "purposes": 2331,
      "fig": 2332,
      "##tting": 2333,
      "disaster": 2334,
      "work": 2335,
      "##ting": 2336,
      "franchises": 2337,
      "followed": 2338,
      "copy": 2339,
      "flu": 2340,
      ")": 2341,
      "upset": 2342,
      "varying": 2343,
      "positions": 2344,
      "house": 2345,
      "shifts": 2346,
      "hardware": 2347,
      "##force": 2348,
      "ke": 2349,
      "'": 2350,
      "evaluating": 2351,
      "court": 2352,
      "##outs": 2353,
      "algorithm": 2354,
      "120": 2355,
      "sa": 2356,
      "this": 2357,
      "reinforcement": 2358,
      "against": 2359,
      "##form": 2360,
      "degrees": 2361,
      "##nts": 2362,
      "factory": 2363,
      "desktop": 2364,
      "tolerance": 2365,
      "##dating": 2366,
      "natural": 2367,
      "180": 2368,
      "out": 2369,
      "accurately": 2370,
      "##ping": 2371,
      "outreach": 2372,
      "gaze": 2373,
      "if": 2374,
      "fit": 2375,
      "coding": 2376,
      "angry": 2377,
      "cr": 2378,
      "sr": 2379,
      "books": 2380,
      "storing": 2381,
      "reluctance": 2382,
      "gain": 2383,
      "creation": 2384,
      "##ity": 2385,
      "predictions": 2386,
      "##zed": 2387,
      "##tl": 2388,
      "swift": 2389,
      "messaging": 2390,
      "studying": 2391,
      "galileo": 2392,
      "pressure": 2393,
      "##dis": 2394,
      "so": 2395,
      "base": 2396,
      "##works": 2397,
      "circle": 2398,
      "involves": 2399,
      "engineering": 2400,
      "inquiries": 2401,
      "long": 2402,
      "intel": 2403,
      "domain": 2404,
      "##t": 2405,
      "aesthetic": 2406,
      "licensing": 2407,
      "mage": 2408,
      "##ta": 2409,
      "mo": 2410,
      "growth": 2411,
      "progressing": 2412,
      "domains": 2413,
      "unexpected": 2414,
      "job": 2415,
      "boundaries": 2416,
      "jun": 2417,
      "potentially": 2418,
      "influential": 2419,
      "##ras": 2420,
      "later": 2421,
      "platform": 2422,
      "transforming": 2423,
      "kind": 2424,
      "transition": 2425,
      "users": 2426,
      "feedback": 2427,
      "50": 2428,
      "##hi": 2429,
      "fragmentation": 2430,
      "assessments": 2431,
      "integrate": 2432,
      "delivered": 2433,
      "though": 2434,
      "##ca": 2435,
      "given": 2436,
      "sour": 2437,
      "technician": 2438,
      "consoles": 2439,
      "coordinating": 2440,
      "slow": 2441,
      "powers": 2442,
      "notebook": 2443,
      "shared": 2444,
      "##izations": 2445,
      "schedule": 2446,
      "store": 2447,
      "ranging": 2448,
      "valuable": 2449,
      "transportation": 2450,
      "then": 2451,
      "##sp": 2452,
      "search": 2453,
      "liability": 2454,
      "##rs": 2455,
      "reins": 2456,
      "di": 2457,
      "oversee": 2458,
      "internship": 2459,
      "fully": 2460,
      "providing": 2461,
      "sigma": 2462,
      "approximately": 2463,
      "monitoring": 2464,
      "biggest": 2465,
      "sabre": 2466,
      "familiar": 2467,
      "zen": 2468,
      "##tion": 2469,
      "version": 2470,
      "##ty": 2471,
      "institute": 2472,
      "advisors": 2473,
      "ever": 2474,
      "r": 2475,
      "computing": 2476,
      "awareness": 2477,
      "##peed": 2478,
      "correctly": 2479,
      "guiding": 2480,
      "facilitating": 2481,
      "quality": 2482,
      "meets": 2483,
      "lu": 2484,
      "improvement": 2485,
      "specialists": 2486,
      "autonomous": 2487,
      "science": 2488,
      "ruby": 2489,
      "generates": 2490,
      "##ized": 2491,
      "holidays": 2492,
      "diploma": 2493,
      "candidates": 2494,
      "accounts": 2495,
      "tend": 2496,
      "one": 2497,
      "software": 2498,
      "cb": 2499,
      "phone": 2500,
      "differences": 2501,
      "defects": 2502,
      "blue": 2503,
      "relationship": 2504,
      "##nt": 2505,
      "gi": 2506,
      "##virus": 2507,
      "recruitment": 2508,
      "adapt": 2509,
      "interest": 2510,
      "designs": 2511,
      "method": 2512,
      ";": 2513,
      "65": 2514,
      "loss": 2515,
      "developers": 2516,
      "materials": 2517,
      "damage": 2518,
      "quantitative": 2519,
      "browser": 2520,
      "negotiation": 2521,
      "electrical": 2522,
      "managing": 2523,
      "##mat": 2524,
      "format": 2525,
      "writing": 2526,
      "checking": 2527,
      "dashboard": 2528,
      "vendors": 2529,
      "acquire": 2530
    }
  }
}